#ifndef IPO_H
#define IPO_H

/*
 CAUTION: This is an auto-generated file.
 DO NOT EDIT OR MAKE ANY CHANGES TO IT.
 Generated on: Tue Nov 19 12:37:11 2024

 Tools used:
 Python: 3.12.6 (tags/v3.12.6:a4a2d2b, Sep  6 2024, 20:11:23) [MSC v.1940 64 bit (AMD64)]
 Numpy: 1.26.4
 TensorFlow: 2.18.0

*/

const unsigned int ipo_len = 7880;

alignas(8) const unsigned char ipo[] = {
0x1c,0x00,0x00,0x00,0x54,0x46,0x4c,0x33,0x14,0x00,0x20,0x00,
0x1c,0x00,0x18,0x00,0x14,0x00,0x10,0x00,0x0c,0x00,0x00,0x00,
0x08,0x00,0x04,0x00,0x14,0x00,0x00,0x00,0x1c,0x00,0x00,0x00,
0x88,0x00,0x00,0x00,0x08,0x01,0x00,0x00,0x44,0x0d,0x00,0x00,
0x54,0x0d,0x00,0x00,0x2c,0x1e,0x00,0x00,0x03,0x00,0x00,0x00,
0x01,0x00,0x00,0x00,0x04,0x00,0x00,0x00,0x46,0xf2,0xff,0xff,
0x0c,0x00,0x00,0x00,0x1c,0x00,0x00,0x00,0x3c,0x00,0x00,0x00,
0x0f,0x00,0x00,0x00,0x73,0x65,0x72,0x76,0x69,0x6e,0x67,0x5f,
0x64,0x65,0x66,0x61,0x75,0x6c,0x74,0x00,0x01,0x00,0x00,0x00,
0x04,0x00,0x00,0x00,0x6c,0xff,0xff,0xff,0x0c,0x00,0x00,0x00,
0x04,0x00,0x00,0x00,0x08,0x00,0x00,0x00,0x6f,0x75,0x74,0x70,
0x75,0x74,0x5f,0x30,0x00,0x00,0x00,0x00,0x01,0x00,0x00,0x00,
0x04,0x00,0x00,0x00,0x42,0xf3,0xff,0xff,0x04,0x00,0x00,0x00,
0x0b,0x00,0x00,0x00,0x69,0x6e,0x70,0x75,0x74,0x5f,0x6c,0x61,
0x79,0x65,0x72,0x00,0x03,0x00,0x00,0x00,0x5c,0x00,0x00,0x00,
0x2c,0x00,0x00,0x00,0x04,0x00,0x00,0x00,0xb8,0xff,0xff,0xff,
0x10,0x00,0x00,0x00,0x04,0x00,0x00,0x00,0x13,0x00,0x00,0x00,
0x43,0x4f,0x4e,0x56,0x45,0x52,0x53,0x49,0x4f,0x4e,0x5f,0x4d,
0x45,0x54,0x41,0x44,0x41,0x54,0x41,0x00,0xdc,0xff,0xff,0xff,
0x0f,0x00,0x00,0x00,0x04,0x00,0x00,0x00,0x13,0x00,0x00,0x00,
0x6d,0x69,0x6e,0x5f,0x72,0x75,0x6e,0x74,0x69,0x6d,0x65,0x5f,
0x76,0x65,0x72,0x73,0x69,0x6f,0x6e,0x00,0x08,0x00,0x0c,0x00,
0x08,0x00,0x04,0x00,0x08,0x00,0x00,0x00,0x0e,0x00,0x00,0x00,
0x04,0x00,0x00,0x00,0x13,0x00,0x00,0x00,0x6d,0x69,0x6e,0x5f,
0x72,0x75,0x6e,0x74,0x69,0x6d,0x65,0x5f,0x76,0x65,0x72,0x73,
0x69,0x6f,0x6e,0x00,0x11,0x00,0x00,0x00,0x38,0x0c,0x00,0x00,
0x30,0x0c,0x00,0x00,0x1c,0x0c,0x00,0x00,0xe4,0x0b,0x00,0x00,
0x54,0x0b,0x00,0x00,0x44,0x03,0x00,0x00,0x34,0x02,0x00,0x00,
0xe4,0x00,0x00,0x00,0xdc,0x00,0x00,0x00,0xd4,0x00,0x00,0x00,
0xcc,0x00,0x00,0x00,0xc4,0x00,0x00,0x00,0xbc,0x00,0x00,0x00,
0xb4,0x00,0x00,0x00,0x94,0x00,0x00,0x00,0x74,0x00,0x00,0x00,
0x04,0x00,0x00,0x00,0x26,0xf4,0xff,0xff,0x04,0x00,0x00,0x00,
0x60,0x00,0x00,0x00,0x0c,0x00,0x00,0x00,0x08,0x00,0x0e,0x00,
0x08,0x00,0x04,0x00,0x08,0x00,0x00,0x00,0x10,0x00,0x00,0x00,
0x28,0x00,0x00,0x00,0x00,0x00,0x06,0x00,0x08,0x00,0x04,0x00,
0x06,0x00,0x00,0x00,0x04,0x00,0x00,0x00,0x01,0x00,0x00,0x00,
0xeb,0x03,0x00,0x00,0x0c,0x00,0x18,0x00,0x14,0x00,0x10,0x00,
0x0c,0x00,0x04,0x00,0x0c,0x00,0x00,0x00,0x3b,0xe8,0x16,0xbf,
0x89,0x57,0x02,0x31,0x02,0x00,0x00,0x00,0x02,0x00,0x00,0x00,
0x04,0x00,0x00,0x00,0x06,0x00,0x00,0x00,0x32,0x2e,0x31,0x38,
0x2e,0x30,0x00,0x00,0x92,0xf4,0xff,0xff,0x04,0x00,0x00,0x00,
0x10,0x00,0x00,0x00,0x00,0x00,0x00,0x00,0x00,0x00,0x00,0x00,
0x00,0x00,0x00,0x00,0x00,0x00,0x00,0x00,0xae,0xf4,0xff,0xff,
0x04,0x00,0x00,0x00,0x10,0x00,0x00,0x00,0x31,0x2e,0x31,0x34,
0x2e,0x30,0x00,0x00,0x00,0x00,0x00,0x00,0x00,0x00,0x00,0x00,
0xf4,0xe3,0xff,0xff,0xf8,0xe3,0xff,0xff,0xfc,0xe3,0xff,0xff,
0x00,0xe4,0xff,0xff,0x04,0xe4,0xff,0xff,0x08,0xe4,0xff,0xff,
0xe2,0xf4,0xff,0xff,0x04,0x00,0x00,0x00,0x40,0x01,0x00,0x00,
0x30,0x3d,0x7f,0xb4,0x97,0x11,0x3b,0x7a,0x7f,0x4b,0x43,0xa8,
0x6a,0x30,0x7f,0x26,0xdd,0x7f,0xa0,0xd3,0x6a,0xce,0x81,0x6b,
0xec,0x81,0xe1,0xc4,0x5a,0x17,0x1f,0x81,0x83,0x29,0x52,0xdc,
0x15,0x81,0x0a,0x71,0x12,0xe8,0x76,0x7f,0xcf,0x81,0xcc,0xe6,
0x54,0xb2,0xd6,0xdd,0xf9,0x81,0x02,0xea,0x50,0x81,0xab,0xf2,
0x29,0x7f,0xa5,0x16,0xf4,0x17,0x7f,0x29,0x14,0x94,0xf1,0x7f,
0xec,0xa5,0xa2,0xb0,0x8f,0x46,0xba,0x7f,0x17,0xb1,0x04,0x5b,
0x81,0x17,0x09,0x7f,0xda,0xca,0x7a,0x81,0xc3,0xb4,0x34,0xcc,
0xb3,0xf0,0x81,0x60,0xe4,0x15,0x81,0xca,0x29,0xe4,0x15,0xd5,
0x81,0x2a,0xa3,0x7f,0x97,0x54,0x73,0xc1,0x81,0xe8,0xe3,0x33,
0x7f,0x26,0x5d,0x20,0x2c,0x3d,0xba,0xcb,0x81,0xe5,0xcd,0x4a,
0xd1,0x36,0x81,0xb3,0x54,0xe1,0x7f,0xf5,0xef,0xbd,0xa7,0x7f,
0x51,0xe0,0x1e,0xd5,0xda,0x81,0xe3,0x0e,0x81,0x6f,0x57,0x40,
0xa9,0x28,0x4a,0x81,0x6f,0x0e,0xc6,0x81,0xcf,0x5a,0x49,0xfb,
0xe1,0x7f,0xff,0x81,0xb5,0xf8,0xb2,0x23,0x9c,0x3a,0x58,0x81,
0xa1,0x7f,0x05,0xe9,0x97,0x3d,0x66,0x81,0xdf,0xed,0xf7,0xd7,
0x7f,0xa5,0xe4,0x00,0x1d,0x7f,0xa5,0x3d,0xfa,0x66,0x5f,0x7f,
0xf6,0x4b,0x5c,0x6d,0x9c,0x81,0xbe,0xe2,0x81,0x2f,0xdc,0x3a,
0x7e,0x7f,0x23,0x4e,0x8c,0x81,0x67,0x82,0xb7,0xe8,0xd3,0x81,
0x40,0x93,0xf8,0x6a,0x69,0x7f,0xfa,0x7b,0x8e,0xe3,0xff,0x81,
0x49,0x41,0x7f,0x0b,0x4c,0x63,0x5f,0x7f,0xa7,0x4f,0x34,0xcc,
0x24,0x21,0x81,0x26,0xe1,0x7f,0x4f,0x42,0x05,0xb3,0xba,0x81,
0x7b,0x05,0xea,0x81,0x3c,0xe8,0x81,0x3a,0xe8,0xad,0x2c,0xfb,
0x81,0xeb,0xa9,0xbd,0xd6,0x14,0x7f,0x8f,0x54,0x81,0xe2,0x85,
0xb0,0xcd,0x0f,0xd1,0xc6,0x7f,0x42,0xf3,0xb8,0xff,0xdf,0x81,
0x1b,0x25,0x7f,0xd4,0xd6,0x3d,0x26,0x81,0xca,0x3a,0x7f,0x33,
0x2b,0x8a,0x3d,0x2a,0x34,0x7f,0xe8,0xdf,0x2e,0xf6,0xff,0xff,
0x04,0x00,0x00,0x00,0x00,0x01,0x00,0x00,0x9e,0x04,0x00,0x00,
0xa5,0x03,0x00,0x00,0x2b,0x00,0x00,0x00,0xe2,0x00,0x00,0x00,
0xbe,0xfd,0xff,0xff,0x5c,0x02,0x00,0x00,0x01,0x02,0x00,0x00,
0x78,0x04,0x00,0x00,0x76,0x06,0x00,0x00,0x9f,0xfd,0xff,0xff,
0xbc,0x04,0x00,0x00,0xe1,0x02,0x00,0x00,0xa6,0x04,0x00,0x00,
0x39,0xff,0xff,0xff,0xce,0x02,0x00,0x00,0x03,0x04,0x00,0x00,
0x10,0xf8,0xff,0xff,0x5e,0xf8,0xff,0xff,0x10,0x03,0x00,0x00,
0x0d,0xfe,0xff,0xff,0xaa,0x03,0x00,0x00,0xd7,0x01,0x00,0x00,
0x4c,0x08,0x00,0x00,0x45,0x05,0x00,0x00,0xa0,0xfc,0xff,0xff,
0x9c,0xf5,0xff,0xff,0x87,0xfe,0xff,0xff,0x5e,0xff,0xff,0xff,
0x5f,0x05,0x00,0x00,0xd5,0x06,0x00,0x00,0xba,0x00,0x00,0x00,
0x2e,0xfc,0xff,0xff,0x10,0x02,0x00,0x00,0x08,0xfe,0xff,0xff,
0xd2,0x00,0x00,0x00,0x0b,0xfb,0xff,0xff,0xae,0x05,0x00,0x00,
0xf3,0x07,0x00,0x00,0x07,0xff,0xff,0xff,0xf2,0xf9,0xff,0xff,
0xd7,0x01,0x00,0x00,0xc1,0xfc,0xff,0xff,0xac,0x05,0x00,0x00,
0x85,0x04,0x00,0x00,0x8b,0xff,0xff,0xff,0x6e,0x08,0x00,0x00,
0x37,0x01,0x00,0x00,0xf5,0x02,0x00,0x00,0x5c,0xf5,0xff,0xff,
0x2c,0xfd,0xff,0xff,0x40,0xf8,0xff,0xff,0x3c,0x07,0x00,0x00,
0x14,0x03,0x00,0x00,0x13,0x06,0x00,0x00,0x5f,0xff,0xff,0xff,
0x8a,0x00,0x00,0x00,0x7f,0xfe,0xff,0xff,0xb1,0x01,0x00,0x00,
0xaf,0x02,0x00,0x00,0x94,0x00,0x00,0x00,0xd1,0xfe,0xff,0xff,
0x03,0x01,0x00,0x00,0xc1,0xf6,0xff,0xff,0xe9,0xfe,0xff,0xff,
0x3a,0xf7,0xff,0xff,0x04,0x00,0x00,0x00,0x00,0x08,0x00,0x00,
0x32,0x45,0xcb,0x17,0x99,0xf7,0xcb,0xea,0x45,0x40,0xe9,0x2c,
0x2d,0xea,0x2e,0xe3,0x22,0x6c,0x81,0xbd,0xfa,0x9d,0xe3,0xfd,
0x40,0xa0,0xca,0xbe,0xea,0xfa,0x6e,0xab,0xaf,0xd3,0xe8,0xd9,
0x12,0x4c,0x3c,0x42,0x15,0xe5,0x2f,0x0d,0x1f,0x2f,0x48,0x11,
0x14,0xf8,0x26,0x4d,0xdb,0x1c,0xad,0xc5,0x53,0x43,0x2a,0xe9,
0xc8,0x42,0x26,0xd9,0x49,0x28,0xac,0x53,0x8e,0x63,0xfd,0xf2,
0x12,0xd0,0x08,0x7f,0x39,0xd6,0x24,0xfe,0xb9,0x77,0xe3,0xae,
0x67,0xcf,0xef,0x17,0x71,0xb2,0xbf,0xad,0xfc,0xf3,0x2b,0xa9,
0xad,0x00,0x13,0xc3,0x14,0x4a,0x0c,0x1c,0x52,0x91,0x01,0xf7,
0xdc,0x23,0x5e,0xc8,0x30,0x1e,0xa3,0x34,0xe5,0x5d,0x10,0xfc,
0x24,0x5c,0x3b,0x2f,0x08,0x08,0xc1,0xc8,0xb4,0x1c,0x00,0xea,
0x02,0x06,0x30,0x20,0x81,0xd2,0x1b,0x08,0xca,0x07,0xb7,0x58,
0x01,0x14,0x2e,0x39,0x28,0x0f,0xf6,0x13,0xbd,0x0c,0x08,0x51,
0x0a,0xfe,0x30,0xb4,0x27,0xf2,0xd3,0xf3,0xc8,0xf3,0x00,0x1d,
0x87,0xb8,0xde,0xe9,0x07,0xca,0xe1,0xec,0xc4,0x02,0xf9,0x18,
0x30,0xe2,0x2e,0xf6,0xfb,0xcf,0xea,0xf7,0x2b,0x09,0xe0,0xc3,
0xe4,0xe1,0xdc,0x33,0xd6,0x3c,0x1f,0x2b,0x4c,0x0d,0xb7,0x1d,
0x3d,0xe2,0x35,0x08,0x9c,0x6a,0xe7,0xc7,0x3c,0xf7,0x04,0xc2,
0x10,0x1c,0xc9,0xf5,0x31,0xb2,0x06,0xba,0xd2,0x1a,0xd7,0xc5,
0x15,0x0e,0x4e,0xcb,0x37,0xdd,0x49,0x02,0x16,0x30,0x28,0x81,
0x17,0x0c,0xc3,0x30,0xfb,0x61,0xb9,0xd1,0x30,0x2b,0x1c,0xc3,
0x13,0x46,0x08,0xd6,0xbc,0xab,0xba,0x13,0xd5,0x44,0xbe,0x2a,
0x25,0x3a,0x09,0x5b,0x46,0xeb,0xf5,0xc5,0xbc,0x9a,0xc8,0xfb,
0x08,0x2f,0x38,0xb7,0x3e,0xd3,0xf8,0x25,0xfc,0x0d,0x1f,0xe3,
0xff,0x34,0x21,0xe9,0xf2,0x60,0xc7,0xba,0xf7,0x94,0x04,0xdb,
0x1c,0x38,0x29,0xc4,0xf1,0x09,0xfd,0xf3,0x2d,0x44,0x27,0x09,
0x33,0x0b,0xfd,0xf7,0x81,0x48,0x37,0xcc,0xeb,0x11,0x22,0x77,
0xa6,0x4b,0xd2,0x12,0x3f,0x09,0xca,0x35,0x1c,0xf5,0x0f,0x2b,
0x06,0x5b,0xd5,0x0a,0x4f,0x30,0x38,0x05,0x55,0xe1,0xcb,0xed,
0x4b,0xce,0x3c,0xa2,0xde,0x28,0xeb,0x14,0xd3,0xfc,0x4a,0xd2,
0x4b,0xd0,0x59,0x1b,0xbb,0x25,0x46,0x81,0xf4,0x30,0xcb,0xd7,
0xcf,0x17,0xb3,0xd8,0xd9,0x23,0x25,0xb0,0x0a,0xf4,0xc8,0xd9,
0xb3,0x37,0xa7,0x51,0xf2,0x4d,0xd3,0x18,0x04,0x9e,0xee,0x83,
0x30,0xd7,0xb1,0x18,0xa3,0x84,0xa3,0xfa,0x33,0x89,0x3b,0xef,
0xdb,0x6e,0x93,0xaf,0x94,0x5e,0xaa,0x52,0xdb,0x8e,0x15,0xd6,
0x23,0x24,0x81,0x16,0xc9,0x37,0x2f,0x59,0xc9,0x20,0xa9,0x02,
0x23,0x86,0xc9,0xe2,0xd5,0x8c,0xbb,0x1c,0xb9,0x67,0xd5,0xa4,
0x8a,0x7a,0xe1,0x8d,0x2d,0x04,0xe9,0xd5,0xef,0xfa,0x11,0xd3,
0x18,0xe3,0x0d,0xed,0x08,0x3e,0x30,0x23,0x20,0xca,0x21,0xf6,
0xfc,0x2b,0xf6,0x07,0xc0,0x01,0x2a,0x4b,0x03,0x29,0x9e,0x44,
0xfc,0xc8,0x23,0x2d,0x07,0x11,0xc1,0x8b,0x1a,0x57,0x01,0x06,
0xed,0x29,0x2f,0x0b,0x81,0xf0,0x5b,0xba,0xea,0xf5,0x12,0x1a,
0xd2,0x02,0x8d,0xfc,0x27,0xc7,0xce,0x32,0x1b,0x0a,0xfa,0x29,
0xcf,0xec,0xed,0xfc,0x35,0xe7,0x1e,0x13,0xe5,0xff,0x07,0xe1,
0xf8,0x7f,0xde,0x14,0x04,0xcd,0x03,0x11,0xfa,0x1a,0xf5,0xa6,
0x17,0xf6,0x34,0x08,0x11,0x03,0x25,0x0a,0xe8,0x03,0x1a,0x1c,
0x17,0xd5,0xff,0x1b,0x2d,0xfe,0x20,0xdb,0x0b,0x12,0xee,0xea,
0xd3,0xeb,0xc1,0x25,0x35,0xef,0x2e,0x1d,0x11,0x1a,0xe9,0x2c,
0xdc,0x1e,0x23,0x14,0x11,0x0d,0x23,0xea,0x90,0xdf,0x3c,0x81,
0x15,0xd9,0xe2,0xd8,0xa4,0xa8,0x1d,0xf5,0xeb,0xb1,0xeb,0xfc,
0x25,0xe9,0x03,0x31,0x0b,0xd9,0xee,0xdd,0xfe,0x21,0xe0,0xcf,
0xac,0x08,0xdc,0x02,0x01,0x0e,0x4c,0x09,0x05,0xe3,0x12,0xeb,
0x1a,0x1e,0xb6,0x05,0xf9,0x21,0xea,0x26,0xdc,0x04,0xfe,0x83,
0x19,0x0d,0xf5,0xfc,0x0e,0x61,0x09,0xfe,0x13,0xf8,0x3b,0xd6,
0x13,0x35,0xd8,0xed,0xbb,0xb8,0xe4,0x0a,0x29,0x06,0x12,0x18,
0x19,0xe2,0x81,0x09,0x15,0x2e,0x1d,0x0c,0x0b,0x06,0xbf,0x3e,
0x26,0x10,0xfb,0x3b,0x0a,0x10,0xc5,0x24,0xd4,0x48,0x14,0x0d,
0xe4,0x29,0xc8,0x2d,0x3d,0x22,0x1c,0xe7,0x08,0x0c,0xde,0x3c,
0x81,0xf4,0xf1,0xeb,0x1d,0xd5,0x1f,0xf4,0x1b,0xe1,0xc7,0x1c,
0x25,0xf7,0xd0,0x26,0x66,0xf2,0xfe,0x58,0x41,0x25,0x3b,0xce,
0xe7,0x7f,0x05,0x14,0x37,0xf6,0xf3,0x01,0x54,0x03,0xe8,0xda,
0x03,0x14,0xf6,0xe2,0x0f,0xfd,0xe0,0xd3,0xf3,0x02,0x4c,0xc6,
0xf8,0x00,0x27,0x1f,0xe6,0xfe,0x2c,0xdd,0xe1,0xe9,0xc0,0x16,
0x1a,0x58,0x06,0xc5,0x18,0x02,0x12,0xd1,0xf7,0x3e,0xd6,0x15,
0xc6,0xdb,0xf5,0xde,0xc4,0x3f,0x22,0xe5,0x3a,0x26,0x11,0x26,
0x36,0xf8,0x1e,0x1f,0x03,0xe7,0xf7,0xf4,0x26,0xdc,0x02,0x1b,
0x27,0xf4,0x00,0x2c,0x1d,0xea,0xf1,0xde,0xb6,0x05,0xdf,0xf4,
0x26,0xfe,0x81,0xe5,0x22,0xb9,0x0a,0xae,0xcf,0x12,0x38,0xe0,
0x28,0x9c,0xa7,0xde,0xfc,0xf5,0x2d,0xd1,0x1f,0x17,0x24,0xbe,
0xd6,0xfd,0xba,0x9f,0x10,0xd7,0xe6,0x31,0xeb,0xea,0xfb,0xe5,
0x26,0xe2,0x0e,0x50,0xea,0x12,0x0b,0xf4,0xe1,0x7f,0x2c,0xca,
0x2d,0xe9,0x26,0x18,0x25,0x23,0xe4,0xc3,0xee,0x19,0x1c,0xf7,
0xe2,0x10,0xdb,0xe6,0x0b,0x2f,0x67,0x2a,0x45,0xdd,0x1a,0x16,
0xd0,0xdc,0x34,0x13,0xdb,0x03,0xd4,0x11,0xd9,0x51,0xbb,0xe5,
0x18,0x48,0x35,0x03,0x15,0x10,0x18,0x17,0xf3,0x22,0x25,0x12,
0xf9,0xfc,0x09,0xef,0x81,0x21,0x22,0xf9,0xe1,0xea,0xd8,0x30,
0xf2,0xf2,0xf1,0x18,0x0d,0x1a,0x0d,0x10,0x10,0x0b,0x26,0x14,
0x14,0x01,0xea,0xd9,0x1a,0xf2,0xf2,0xf7,0xe9,0xcf,0x14,0x2d,
0xd8,0x1c,0x00,0x29,0x19,0xf0,0xe4,0xf9,0x12,0x05,0xed,0x25,
0x22,0x08,0x22,0x14,0x16,0x16,0x00,0xeb,0xed,0xdb,0x1b,0xeb,
0x2d,0x0c,0x07,0x1c,0x26,0x35,0xea,0xfc,0x8e,0xd8,0xea,0xac,
0x14,0xc5,0xe9,0xed,0xa4,0xaa,0xff,0xc7,0xe2,0x81,0x04,0x23,
0x0e,0xeb,0xe2,0x3a,0x07,0xcd,0x1e,0x08,0x09,0x07,0x13,0xc4,
0xf3,0x10,0x0c,0x33,0xf2,0x12,0x41,0x1b,0xe3,0xd2,0xbe,0xe2,
0x20,0xf1,0xea,0xfc,0xe0,0xf8,0xe3,0x05,0x87,0xfe,0x25,0xd0,
0xe8,0xf3,0x1a,0x31,0x15,0x24,0xdc,0x0d,0xd0,0x12,0xc2,0xe9,
0x47,0xf2,0xf7,0x25,0x17,0xec,0x28,0x0f,0xf8,0x7f,0xc3,0xc5,
0x19,0xef,0x1e,0x05,0x42,0xfe,0xfc,0xc1,0x03,0xd8,0x10,0x00,
0xe3,0x05,0xed,0xeb,0x1f,0x2a,0x1d,0x05,0x07,0xdf,0x2e,0xf2,
0x0a,0x17,0xee,0xf6,0x2d,0x0a,0x06,0x2a,0xe4,0x04,0xd9,0x06,
0xf8,0xed,0x27,0x0e,0x0b,0x0e,0x0c,0x1e,0x03,0x03,0x06,0x96,
0x06,0xf8,0xf2,0xee,0xdd,0xaa,0x5e,0x0d,0x1d,0xfa,0x29,0xe7,
0x0e,0x81,0x2a,0xf1,0x09,0x18,0x23,0x37,0xc1,0x08,0x3e,0x38,
0xd5,0x07,0xbb,0xc3,0xe6,0xe2,0xe1,0xad,0x0d,0x0b,0xce,0xf5,
0x0c,0x04,0xa9,0x15,0x1b,0xb2,0x27,0xf4,0xe9,0x12,0xcc,0x0c,
0xe4,0x89,0x3d,0xea,0x26,0xcc,0xa5,0x8b,0x18,0xdb,0xe7,0xfc,
0x3a,0x0e,0x11,0x3e,0xbe,0xbd,0x12,0xb5,0x33,0x17,0x05,0x02,
0xcd,0xeb,0x2e,0xf4,0x00,0x39,0xed,0xd9,0xe2,0xe9,0xd1,0xdd,
0xf5,0x22,0x07,0xa0,0x81,0x1e,0xe7,0xf4,0x01,0xf1,0x19,0xea,
0xf8,0xdf,0x02,0x0a,0x04,0x93,0x21,0x1f,0x29,0xdb,0xf1,0xf9,
0xfa,0x24,0x2c,0x20,0x16,0xe4,0xff,0x22,0xf2,0x26,0xe1,0x19,
0x5e,0x47,0xdb,0x1b,0xbc,0x25,0xe3,0x25,0x0c,0xd9,0x52,0x18,
0xb7,0xec,0x37,0xdc,0x9a,0x81,0xb2,0x63,0x29,0x9c,0x3f,0x3f,
0xd3,0x2d,0xd3,0x13,0xc6,0x41,0x25,0x68,0xf4,0xff,0xfb,0x11,
0x08,0x3b,0xd8,0xfb,0xd3,0xf8,0xc5,0x04,0xae,0x02,0x21,0x04,
0x3e,0x26,0x1a,0x1b,0x2c,0x45,0x17,0x10,0xfc,0x26,0x47,0x36,
0xfb,0xd6,0x3b,0x0c,0x36,0xf5,0x27,0x1c,0x00,0xfb,0xea,0xfc,
0xf7,0xf6,0xea,0xba,0x08,0x04,0x07,0x10,0xdc,0x31,0x05,0xde,
0x02,0x7f,0x08,0xfd,0x18,0xe6,0xff,0xff,0x0f,0x27,0x18,0xb5,
0x87,0xe8,0xa8,0x26,0x0d,0xe6,0x0f,0x13,0xf9,0x15,0x3b,0x17,
0xed,0xfd,0xff,0x02,0x20,0x09,0x07,0x2e,0xc2,0xe4,0xf7,0x07,
0xfa,0xeb,0xe0,0x0d,0x6e,0x03,0xe6,0x10,0x24,0x25,0x0d,0x13,
0x03,0x48,0xd9,0x34,0xe2,0xc7,0x1a,0x43,0xb1,0x50,0xce,0x89,
0x96,0xf2,0x90,0x29,0x14,0xe9,0x16,0x7d,0xf1,0xd7,0xc5,0x7f,
0xf5,0x62,0x51,0x51,0xf1,0xf6,0x35,0xcd,0xf3,0x63,0x27,0x4a,
0x93,0x9f,0xa3,0x35,0xff,0x1e,0x3c,0x59,0xeb,0x61,0x88,0x6b,
0x33,0xf6,0x0d,0xbd,0x2a,0xf7,0x33,0x5b,0x0b,0xa0,0x30,0x68,
0xdf,0xe2,0x4b,0xfe,0xea,0x3b,0x0a,0x0b,0x39,0xcf,0x31,0x28,
0xee,0xf0,0x2e,0xfb,0xb2,0xe0,0x14,0xee,0x14,0x81,0x3f,0x15,
0xcf,0x35,0xae,0x46,0xcc,0x24,0x22,0x2b,0x14,0xf3,0x9a,0x29,
0x1b,0xf4,0x1c,0xfc,0x16,0x27,0xe9,0xef,0x0e,0x4e,0x0e,0x40,
0xf8,0x23,0x23,0x29,0x29,0xd7,0x23,0xd3,0xe6,0xce,0x14,0x2d,
0xf0,0x03,0xcc,0x3f,0x0a,0xd1,0x24,0x3a,0xdd,0x06,0x0c,0x13,
0x2d,0x11,0x2a,0xfc,0x81,0xf8,0x38,0x9c,0xed,0xe2,0xfe,0x03,
0xa1,0xaa,0x1b,0xf9,0xe4,0xd0,0x14,0x1b,0xfc,0x22,0x09,0x29,
0xf9,0xbf,0x10,0xdc,0x10,0x0c,0x13,0xb9,0xb6,0xf5,0xda,0x10,
0xd9,0xf0,0x39,0x24,0x09,0x96,0xe4,0xf7,0x2f,0xf5,0xbf,0x28,
0xf2,0x07,0xff,0x02,0xf8,0xe3,0xfb,0x90,0x08,0xef,0x2c,0x05,
0xf5,0xe1,0xbe,0xd6,0xd7,0x2f,0xf3,0x1d,0x0a,0x28,0x31,0xff,
0x62,0x2b,0x15,0x95,0xda,0xc0,0xfb,0xc3,0x0e,0xe3,0x1b,0xda,
0x28,0xe6,0xda,0x23,0xcc,0x27,0x38,0xbf,0x32,0x37,0xdc,0xc8,
0x05,0x34,0x25,0x24,0x10,0x81,0x45,0xe8,0xef,0x05,0xed,0xfe,
0x40,0x0e,0xcc,0xd7,0xc3,0x3b,0xf3,0x04,0xfd,0x0f,0x1e,0x21,
0x94,0x20,0x30,0x9b,0x0d,0xee,0x0b,0x2a,0x05,0x06,0x1e,0xef,
0x33,0x12,0xfb,0x0d,0xee,0x35,0x0e,0x16,0xd0,0x7f,0x18,0x0e,
0x05,0x15,0x0c,0xf6,0x27,0xf6,0xee,0xc2,0x14,0x84,0x02,0x1e,
0x0c,0xf9,0xdd,0x1d,0x15,0x05,0x2f,0xf5,0x1b,0xff,0xf8,0xf4,
0x19,0xd2,0x14,0xf3,0x0c,0xe8,0x1e,0xef,0x03,0xfa,0xec,0xe3,
0x1a,0x1e,0xf2,0xff,0x2c,0x0d,0x0b,0x17,0xcf,0x30,0x23,0x17,
0xc5,0x3f,0x2a,0x2e,0x55,0x33,0x1d,0xd5,0x21,0xf9,0x03,0xe1,
0xf1,0x6b,0x02,0xf4,0x25,0xc8,0x19,0xed,0x4d,0x0c,0x81,0xf1,
0xdb,0xff,0xfd,0x1b,0x23,0xd0,0x31,0xc2,0x22,0x3d,0x2e,0x2a,
0xfa,0xd7,0xd4,0x39,0x07,0xdd,0x3c,0x0f,0xcb,0xe0,0xcf,0x00,
0x2b,0x13,0xb5,0x31,0x31,0xd1,0x28,0x07,0xd0,0x1f,0xfd,0xfb,
0xb7,0x81,0xce,0xdb,0x20,0x98,0xf0,0x26,0x32,0x32,0x32,0x0c,
0x97,0xa3,0xd7,0xdf,0x43,0x03,0x1a,0x39,0xfc,0x33,0x94,0x08,
0xcf,0x0f,0x34,0x20,0x5a,0x37,0xcc,0x3e,0xf7,0xfb,0x36,0x0b,
0xda,0xff,0xe6,0x35,0xd5,0xdf,0x1b,0xd1,0xcd,0xe8,0xb4,0x1a,
0x25,0xb1,0xfa,0xf3,0x48,0x33,0xaf,0x49,0x90,0x1b,0xba,0x1b,
0xeb,0xf2,0xdc,0xdf,0x57,0xed,0x37,0x38,0x3d,0x9d,0xe2,0xe9,
0x7e,0xf7,0xcc,0x56,0xf3,0x3f,0xe0,0xbc,0xc2,0x7c,0x06,0xcb,
0x3a,0x39,0xf6,0x8d,0xf7,0xf2,0x8e,0x9d,0x26,0x82,0xf2,0x17,
0x43,0x42,0xaa,0x39,0x05,0x52,0x7b,0xe5,0x00,0x08,0xcc,0x16,
0xfd,0xf1,0xfd,0x07,0x3b,0x40,0x63,0xf2,0xe5,0x4c,0xd0,0x81,
0x2a,0xec,0xfb,0xe9,0x19,0x3d,0x32,0x42,0x3b,0x1c,0xc1,0xdd,
0xf7,0x0e,0xf4,0x16,0x27,0x22,0x1d,0x14,0xf4,0x29,0xf6,0xfb,
0x04,0xd4,0x1a,0x1f,0x01,0x27,0xde,0x11,0xb1,0xec,0x26,0x31,
0x2c,0x13,0xca,0x40,0x27,0xc1,0x20,0x44,0x0b,0x24,0xc7,0x8d,
0x04,0x60,0xd9,0x28,0xe3,0xf8,0x23,0x1f,0x81,0xd3,0x2f,0xd8,
0xf7,0xe9,0x23,0x25,0xee,0xfb,0xad,0xf3,0x35,0xc9,0xc9,0x0e,
0xa9,0xcb,0xd3,0x3d,0x2b,0x2c,0xed,0x0d,0x00,0x42,0xda,0xc1,
0xd0,0x81,0xdd,0xfb,0x4c,0xba,0x2d,0xfd,0xac,0xd7,0xb0,0xd2,
0xc1,0xcd,0x2d,0x02,0x31,0x26,0xac,0x28,0x1f,0x2a,0x41,0x56,
0x19,0xf7,0xdc,0xec,0x23,0x2f,0x0a,0x4d,0xdd,0x41,0x00,0x1e,
0xf2,0x39,0x32,0x26,0xdb,0x34,0x57,0xeb,0x2f,0x03,0x92,0x04,
0xe4,0xa9,0x23,0x35,0x18,0x05,0x00,0x03,0x10,0xfc,0x35,0xce,
0xbb,0xa3,0x3f,0xf0,0x15,0x0a,0xfd,0xfe,0xd7,0x81,0xf9,0xed,
0xab,0xf1,0xef,0x34,0xfb,0x18,0x19,0x3b,0x84,0x32,0x97,0x0e,
0x1d,0x12,0xdb,0xd7,0x0a,0x0b,0xee,0xef,0x2f,0x2a,0xce,0x21,
0x07,0xe6,0xfc,0xf7,0x08,0x0e,0xcf,0x08,0xd3,0xbd,0x2c,0x05,
0x15,0x0d,0xf1,0x9d,0x08,0xee,0x1e,0x21,0x46,0xff,0xff,0xff,
0x04,0x00,0x00,0x00,0x80,0x00,0x00,0x00,0xd7,0x04,0x00,0x00,
0x7e,0x06,0x00,0x00,0x37,0x04,0x00,0x00,0x63,0x05,0x00,0x00,
0x9c,0x03,0x00,0x00,0xa8,0x04,0x00,0x00,0x00,0x00,0x00,0x00,
0xb0,0x02,0x00,0x00,0x9b,0xfe,0xff,0xff,0xc8,0xf9,0xff,0xff,
0xda,0x00,0x00,0x00,0x43,0x03,0x00,0x00,0x45,0x01,0x00,0x00,
0x2f,0x02,0x00,0x00,0x85,0xff,0xff,0xff,0xbe,0xfd,0xff,0xff,
0x05,0x01,0x00,0x00,0x39,0x06,0x00,0x00,0x7d,0x00,0x00,0x00,
0xf1,0xfe,0xff,0xff,0x25,0x00,0x00,0x00,0x75,0x00,0x00,0x00,
0x54,0x01,0x00,0x00,0x9c,0xfd,0xff,0xff,0x3c,0x04,0x00,0x00,
0x39,0xff,0xff,0xff,0x77,0xff,0xff,0xff,0x28,0x00,0x00,0x00,
0x98,0xfe,0xff,0xff,0x48,0x01,0x00,0x00,0x97,0xf9,0xff,0xff,
0xf3,0xff,0xff,0xff,0xd2,0xff,0xff,0xff,0x04,0x00,0x00,0x00,
0x20,0x00,0x00,0x00,0x62,0x44,0xd1,0x69,0x4c,0x52,0x15,0xcb,
0x48,0x8e,0xef,0x20,0x7d,0x2f,0xbf,0xb0,0x4c,0xa4,0x5d,0xdc,
0x2a,0xbb,0xce,0xc5,0x7f,0x39,0x05,0xc8,0x52,0xa5,0xce,0x9b,
0x00,0x00,0x06,0x00,0x08,0x00,0x04,0x00,0x06,0x00,0x00,0x00,
0x04,0x00,0x00,0x00,0x04,0x00,0x00,0x00,0x3d,0x00,0x00,0x00,
0x40,0xef,0xff,0xff,0x44,0xef,0xff,0xff,0x0f,0x00,0x00,0x00,
0x4d,0x4c,0x49,0x52,0x20,0x43,0x6f,0x6e,0x76,0x65,0x72,0x74,
0x65,0x64,0x2e,0x00,0x01,0x00,0x00,0x00,0x14,0x00,0x00,0x00,
0x00,0x00,0x0e,0x00,0x18,0x00,0x14,0x00,0x10,0x00,0x0c,0x00,
0x08,0x00,0x04,0x00,0x0e,0x00,0x00,0x00,0x14,0x00,0x00,0x00,
0x1c,0x00,0x00,0x00,0x64,0x01,0x00,0x00,0x68,0x01,0x00,0x00,
0x6c,0x01,0x00,0x00,0x04,0x00,0x00,0x00,0x6d,0x61,0x69,0x6e,
0x00,0x00,0x00,0x00,0x06,0x00,0x00,0x00,0x2c,0x01,0x00,0x00,
0xdc,0x00,0x00,0x00,0x90,0x00,0x00,0x00,0x58,0x00,0x00,0x00,
0x34,0x00,0x00,0x00,0x04,0x00,0x00,0x00,0xde,0xff,0xff,0xff,
0x0c,0x00,0x00,0x00,0x10,0x00,0x00,0x00,0x03,0x00,0x00,0x00,
0x01,0x00,0x00,0x00,0x0c,0x00,0x00,0x00,0x01,0x00,0x00,0x00,
0x0b,0x00,0x00,0x00,0x00,0x00,0x0a,0x00,0x10,0x00,0x0c,0x00,
0x08,0x00,0x04,0x00,0x0a,0x00,0x00,0x00,0x0c,0x00,0x00,0x00,
0x10,0x00,0x00,0x00,0x02,0x00,0x00,0x00,0x01,0x00,0x00,0x00,
0x0b,0x00,0x00,0x00,0x01,0x00,0x00,0x00,0x0a,0x00,0x00,0x00,
0x92,0xff,0xff,0xff,0x14,0x00,0x00,0x00,0x00,0x00,0x00,0x08,
0x10,0x00,0x00,0x00,0x14,0x00,0x00,0x00,0x01,0x00,0x00,0x00,
0x18,0xf0,0xff,0xff,0x01,0x00,0x00,0x00,0x0a,0x00,0x00,0x00,
0x03,0x00,0x00,0x00,0x09,0x00,0x00,0x00,0x02,0x00,0x00,0x00,
0x01,0x00,0x00,0x00,0xc6,0xff,0xff,0xff,0x14,0x00,0x00,0x00,
0x00,0x00,0x00,0x08,0x14,0x00,0x00,0x00,0x18,0x00,0x00,0x00,
0x01,0x00,0x00,0x00,0xb6,0xff,0xff,0xff,0x00,0x00,0x00,0x01,
0x01,0x00,0x00,0x00,0x09,0x00,0x00,0x00,0x03,0x00,0x00,0x00,
0x08,0x00,0x00,0x00,0x04,0x00,0x00,0x00,0x03,0x00,0x00,0x00,
0x00,0x00,0x0e,0x00,0x1a,0x00,0x14,0x00,0x10,0x00,0x0c,0x00,
0x0b,0x00,0x04,0x00,0x0e,0x00,0x00,0x00,0x1c,0x00,0x00,0x00,
0x00,0x00,0x00,0x08,0x1c,0x00,0x00,0x00,0x20,0x00,0x00,0x00,
0x01,0x00,0x00,0x00,0x00,0x00,0x06,0x00,0x08,0x00,0x07,0x00,
0x06,0x00,0x00,0x00,0x00,0x00,0x00,0x01,0x01,0x00,0x00,0x00,
0x08,0x00,0x00,0x00,0x03,0x00,0x00,0x00,0x07,0x00,0x00,0x00,
0x06,0x00,0x00,0x00,0x05,0x00,0x00,0x00,0x00,0x00,0x0a,0x00,
0x0c,0x00,0x00,0x00,0x08,0x00,0x04,0x00,0x0a,0x00,0x00,0x00,
0x08,0x00,0x00,0x00,0x0c,0x00,0x00,0x00,0x01,0x00,0x00,0x00,
0x07,0x00,0x00,0x00,0x01,0x00,0x00,0x00,0x00,0x00,0x00,0x00,
0x01,0x00,0x00,0x00,0x0c,0x00,0x00,0x00,0x01,0x00,0x00,0x00,
0x00,0x00,0x00,0x00,0x0d,0x00,0x00,0x00,0xe0,0x0e,0x00,0x00,
0x5c,0x0e,0x00,0x00,0xdc,0x0d,0x00,0x00,0x08,0x0c,0x00,0x00,
0x2c,0x0a,0x00,0x00,0xd8,0x06,0x00,0x00,0x7c,0x03,0x00,0x00,
0x08,0x03,0x00,0x00,0x3c,0x02,0x00,0x00,0x80,0x01,0x00,0x00,
0xe4,0x00,0x00,0x00,0x60,0x00,0x00,0x00,0x04,0x00,0x00,0x00,
0x6a,0xf1,0xff,0xff,0x00,0x00,0x00,0x01,0x14,0x00,0x00,0x00,
0x1c,0x00,0x00,0x00,0x1c,0x00,0x00,0x00,0x0d,0x00,0x00,0x00,
0x34,0x00,0x00,0x00,0x02,0x00,0x00,0x00,0xff,0xff,0xff,0xff,
0x01,0x00,0x00,0x00,0x54,0xf1,0xff,0xff,0x1b,0x00,0x00,0x00,
0x53,0x74,0x61,0x74,0x65,0x66,0x75,0x6c,0x50,0x61,0x72,0x74,
0x69,0x74,0x69,0x6f,0x6e,0x65,0x64,0x43,0x61,0x6c,0x6c,0x5f,
0x31,0x3a,0x30,0x00,0x02,0x00,0x00,0x00,0x01,0x00,0x00,0x00,
0x01,0x00,0x00,0x00,0x7e,0xfd,0xff,0xff,0x00,0x00,0x00,0x01,
0x18,0x00,0x00,0x00,0x20,0x00,0x00,0x00,0x40,0x00,0x00,0x00,
0x0c,0x00,0x00,0x00,0x00,0x00,0x00,0x09,0x58,0x00,0x00,0x00,
0x02,0x00,0x00,0x00,0xff,0xff,0xff,0xff,0x01,0x00,0x00,0x00,
0x3c,0xf2,0xff,0xff,0x08,0x00,0x00,0x00,0x14,0x00,0x00,0x00,
0x01,0x00,0x00,0x00,0x80,0xff,0xff,0xff,0xff,0xff,0xff,0xff,
0x00,0x00,0x00,0x00,0x01,0x00,0x00,0x00,0x00,0x00,0x80,0x3b,
0x1c,0x00,0x00,0x00,0x53,0x74,0x61,0x74,0x65,0x66,0x75,0x6c,
0x50,0x61,0x72,0x74,0x69,0x74,0x69,0x6f,0x6e,0x65,0x64,0x43,
0x61,0x6c,0x6c,0x5f,0x31,0x3a,0x30,0x31,0x00,0x00,0x00,0x00,
0x02,0x00,0x00,0x00,0x01,0x00,0x00,0x00,0x01,0x00,0x00,0x00,
0xfe,0xfd,0xff,0xff,0x00,0x00,0x00,0x01,0x18,0x00,0x00,0x00,
0x20,0x00,0x00,0x00,0x3c,0x00,0x00,0x00,0x0b,0x00,0x00,0x00,
0x00,0x00,0x00,0x09,0x70,0x00,0x00,0x00,0x02,0x00,0x00,0x00,
0xff,0xff,0xff,0xff,0x01,0x00,0x00,0x00,0xbc,0xf2,0xff,0xff,
0x08,0x00,0x00,0x00,0x10,0x00,0x00,0x00,0x01,0x00,0x00,0x00,
0x9d,0xff,0xff,0xff,0xff,0xff,0xff,0xff,0x01,0x00,0x00,0x00,
0x1c,0x96,0x2b,0x3e,0x38,0x00,0x00,0x00,0x73,0x65,0x71,0x75,
0x65,0x6e,0x74,0x69,0x61,0x6c,0x5f,0x31,0x2f,0x64,0x65,0x6e,
0x73,0x65,0x5f,0x32,0x5f,0x31,0x2f,0x4d,0x61,0x74,0x4d,0x75,
0x6c,0x3b,0x73,0x65,0x71,0x75,0x65,0x6e,0x74,0x69,0x61,0x6c,
0x5f,0x31,0x2f,0x64,0x65,0x6e,0x73,0x65,0x5f,0x32,0x5f,0x31,
0x2f,0x41,0x64,0x64,0x00,0x00,0x00,0x00,0x02,0x00,0x00,0x00,
0x01,0x00,0x00,0x00,0x01,0x00,0x00,0x00,0x96,0xfe,0xff,0xff,
0x00,0x00,0x00,0x01,0x18,0x00,0x00,0x00,0x20,0x00,0x00,0x00,
0x40,0x00,0x00,0x00,0x0a,0x00,0x00,0x00,0x00,0x00,0x00,0x09,
0x90,0x00,0x00,0x00,0x02,0x00,0x00,0x00,0xff,0xff,0xff,0xff,
0x20,0x00,0x00,0x00,0x54,0xf3,0xff,0xff,0x08,0x00,0x00,0x00,
0x14,0x00,0x00,0x00,0x01,0x00,0x00,0x00,0x80,0xff,0xff,0xff,
0xff,0xff,0xff,0xff,0x00,0x00,0x00,0x00,0x01,0x00,0x00,0x00,
0x8f,0x3a,0x29,0x3d,0x54,0x00,0x00,0x00,0x73,0x65,0x71,0x75,
0x65,0x6e,0x74,0x69,0x61,0x6c,0x5f,0x31,0x2f,0x64,0x65,0x6e,
0x73,0x65,0x5f,0x31,0x5f,0x32,0x2f,0x4d,0x61,0x74,0x4d,0x75,
0x6c,0x3b,0x73,0x65,0x71,0x75,0x65,0x6e,0x74,0x69,0x61,0x6c,
0x5f,0x31,0x2f,0x64,0x65,0x6e,0x73,0x65,0x5f,0x31,0x5f,0x32,
0x2f,0x52,0x65,0x6c,0x75,0x3b,0x73,0x65,0x71,0x75,0x65,0x6e,
0x74,0x69,0x61,0x6c,0x5f,0x31,0x2f,0x64,0x65,0x6e,0x73,0x65,
0x5f,0x31,0x5f,0x32,0x2f,0x41,0x64,0x64,0x00,0x00,0x00,0x00,
0x02,0x00,0x00,0x00,0x01,0x00,0x00,0x00,0x20,0x00,0x00,0x00,
0x4e,0xff,0xff,0xff,0x00,0x00,0x00,0x01,0x18,0x00,0x00,0x00,
0x20,0x00,0x00,0x00,0x40,0x00,0x00,0x00,0x09,0x00,0x00,0x00,
0x00,0x00,0x00,0x09,0x88,0x00,0x00,0x00,0x02,0x00,0x00,0x00,
0xff,0xff,0xff,0xff,0x40,0x00,0x00,0x00,0x0c,0xf4,0xff,0xff,
0x08,0x00,0x00,0x00,0x14,0x00,0x00,0x00,0x01,0x00,0x00,0x00,
0x80,0xff,0xff,0xff,0xff,0xff,0xff,0xff,0x00,0x00,0x00,0x00,
0x01,0x00,0x00,0x00,0x34,0xae,0x88,0x3c,0x4e,0x00,0x00,0x00,
0x73,0x65,0x71,0x75,0x65,0x6e,0x74,0x69,0x61,0x6c,0x5f,0x31,
0x2f,0x64,0x65,0x6e,0x73,0x65,0x5f,0x31,0x2f,0x4d,0x61,0x74,
0x4d,0x75,0x6c,0x3b,0x73,0x65,0x71,0x75,0x65,0x6e,0x74,0x69,
0x61,0x6c,0x5f,0x31,0x2f,0x64,0x65,0x6e,0x73,0x65,0x5f,0x31,
0x2f,0x52,0x65,0x6c,0x75,0x3b,0x73,0x65,0x71,0x75,0x65,0x6e,
0x74,0x69,0x61,0x6c,0x5f,0x31,0x2f,0x64,0x65,0x6e,0x73,0x65,
0x5f,0x31,0x2f,0x41,0x64,0x64,0x00,0x00,0x02,0x00,0x00,0x00,
0x01,0x00,0x00,0x00,0x40,0x00,0x00,0x00,0x00,0x00,0x16,0x00,
0x20,0x00,0x1c,0x00,0x1b,0x00,0x14,0x00,0x10,0x00,0x0c,0x00,
0x00,0x00,0x00,0x00,0x08,0x00,0x07,0x00,0x16,0x00,0x00,0x00,
0x00,0x00,0x00,0x01,0x18,0x00,0x00,0x00,0x20,0x00,0x00,0x00,
0x40,0x00,0x00,0x00,0x08,0x00,0x00,0x00,0x00,0x00,0x00,0x09,
0x48,0x00,0x00,0x00,0x02,0x00,0x00,0x00,0xff,0xff,0xff,0xff,
0x05,0x00,0x00,0x00,0xd4,0xf4,0xff,0xff,0x08,0x00,0x00,0x00,
0x14,0x00,0x00,0x00,0x01,0x00,0x00,0x00,0xac,0xff,0xff,0xff,
0xff,0xff,0xff,0xff,0x00,0x00,0x00,0x00,0x01,0x00,0x00,0x00,
0xea,0xcb,0xb2,0x3c,0x0c,0x00,0x00,0x00,0x74,0x66,0x6c,0x2e,
0x71,0x75,0x61,0x6e,0x74,0x69,0x7a,0x65,0x00,0x00,0x00,0x00,
0x02,0x00,0x00,0x00,0x01,0x00,0x00,0x00,0x05,0x00,0x00,0x00,
0x4a,0xf5,0xff,0xff,0x00,0x00,0x00,0x01,0x14,0x00,0x00,0x00,
0x28,0x03,0x00,0x00,0x07,0x00,0x00,0x00,0x00,0x00,0x00,0x09,
0x34,0x03,0x00,0x00,0x34,0xf5,0xff,0xff,0x08,0x00,0x00,0x00,
0x0c,0x02,0x00,0x00,0x40,0x00,0x00,0x00,0x00,0x00,0x00,0x00,
0x00,0x00,0x00,0x00,0x00,0x00,0x00,0x00,0x00,0x00,0x00,0x00,
0x00,0x00,0x00,0x00,0x00,0x00,0x00,0x00,0x00,0x00,0x00,0x00,
0x00,0x00,0x00,0x00,0x00,0x00,0x00,0x00,0x00,0x00,0x00,0x00,
0x00,0x00,0x00,0x00,0x00,0x00,0x00,0x00,0x00,0x00,0x00,0x00,
0x00,0x00,0x00,0x00,0x00,0x00,0x00,0x00,0x00,0x00,0x00,0x00,
0x00,0x00,0x00,0x00,0x00,0x00,0x00,0x00,0x00,0x00,0x00,0x00,
0x00,0x00,0x00,0x00,0x00,0x00,0x00,0x00,0x00,0x00,0x00,0x00,
0x00,0x00,0x00,0x00,0x00,0x00,0x00,0x00,0x00,0x00,0x00,0x00,
0x00,0x00,0x00,0x00,0x00,0x00,0x00,0x00,0x00,0x00,0x00,0x00,
0x00,0x00,0x00,0x00,0x00,0x00,0x00,0x00,0x00,0x00,0x00,0x00,
0x00,0x00,0x00,0x00,0x00,0x00,0x00,0x00,0x00,0x00,0x00,0x00,
0x00,0x00,0x00,0x00,0x00,0x00,0x00,0x00,0x00,0x00,0x00,0x00,
0x00,0x00,0x00,0x00,0x00,0x00,0x00,0x00,0x00,0x00,0x00,0x00,
0x00,0x00,0x00,0x00,0x00,0x00,0x00,0x00,0x00,0x00,0x00,0x00,
0x00,0x00,0x00,0x00,0x00,0x00,0x00,0x00,0x00,0x00,0x00,0x00,
0x00,0x00,0x00,0x00,0x00,0x00,0x00,0x00,0x00,0x00,0x00,0x00,
0x00,0x00,0x00,0x00,0x00,0x00,0x00,0x00,0x00,0x00,0x00,0x00,
0x00,0x00,0x00,0x00,0x00,0x00,0x00,0x00,0x00,0x00,0x00,0x00,
0x00,0x00,0x00,0x00,0x00,0x00,0x00,0x00,0x00,0x00,0x00,0x00,
0x00,0x00,0x00,0x00,0x00,0x00,0x00,0x00,0x00,0x00,0x00,0x00,
0x00,0x00,0x00,0x00,0x00,0x00,0x00,0x00,0x00,0x00,0x00,0x00,
0x00,0x00,0x00,0x00,0x00,0x00,0x00,0x00,0x00,0x00,0x00,0x00,
0x00,0x00,0x00,0x00,0x00,0x00,0x00,0x00,0x00,0x00,0x00,0x00,
0x00,0x00,0x00,0x00,0x00,0x00,0x00,0x00,0x00,0x00,0x00,0x00,
0x00,0x00,0x00,0x00,0x00,0x00,0x00,0x00,0x00,0x00,0x00,0x00,
0x00,0x00,0x00,0x00,0x00,0x00,0x00,0x00,0x00,0x00,0x00,0x00,
0x00,0x00,0x00,0x00,0x00,0x00,0x00,0x00,0x00,0x00,0x00,0x00,
0x00,0x00,0x00,0x00,0x00,0x00,0x00,0x00,0x00,0x00,0x00,0x00,
0x00,0x00,0x00,0x00,0x00,0x00,0x00,0x00,0x00,0x00,0x00,0x00,
0x00,0x00,0x00,0x00,0x00,0x00,0x00,0x00,0x00,0x00,0x00,0x00,
0x00,0x00,0x00,0x00,0x00,0x00,0x00,0x00,0x00,0x00,0x00,0x00,
0x00,0x00,0x00,0x00,0x00,0x00,0x00,0x00,0x00,0x00,0x00,0x00,
0x00,0x00,0x00,0x00,0x00,0x00,0x00,0x00,0x00,0x00,0x00,0x00,
0x00,0x00,0x00,0x00,0x00,0x00,0x00,0x00,0x00,0x00,0x00,0x00,
0x00,0x00,0x00,0x00,0x00,0x00,0x00,0x00,0x00,0x00,0x00,0x00,
0x00,0x00,0x00,0x00,0x00,0x00,0x00,0x00,0x00,0x00,0x00,0x00,
0x00,0x00,0x00,0x00,0x00,0x00,0x00,0x00,0x00,0x00,0x00,0x00,
0x00,0x00,0x00,0x00,0x00,0x00,0x00,0x00,0x00,0x00,0x00,0x00,
0x00,0x00,0x00,0x00,0x00,0x00,0x00,0x00,0x00,0x00,0x00,0x00,
0x00,0x00,0x00,0x00,0x00,0x00,0x00,0x00,0x00,0x00,0x00,0x00,
0x00,0x00,0x00,0x00,0x00,0x00,0x00,0x00,0x00,0x00,0x00,0x00,
0x00,0x00,0x00,0x00,0x00,0x00,0x00,0x00,0x00,0x00,0x00,0x00,
0x00,0x00,0x00,0x00,0x00,0x00,0x00,0x00,0x40,0x00,0x00,0x00,
0x57,0x22,0x2a,0x3b,0x49,0x1c,0x59,0x3b,0x91,0x68,0x1c,0x3b,
0xfd,0x9e,0x82,0x3b,0xf0,0xad,0x2b,0x3b,0xdd,0x60,0x83,0x3b,
0x28,0x56,0x28,0x3b,0x93,0x6b,0x25,0x3b,0x71,0x5a,0x86,0x3b,
0x6e,0xa1,0x15,0x3b,0xb5,0x77,0x75,0x3b,0xdb,0x1e,0x7e,0x3b,
0xb5,0xdf,0x4a,0x3b,0x4b,0xd8,0x5b,0x3b,0xd8,0x0b,0x01,0x3b,
0x56,0x76,0x0d,0x3b,0xe7,0x31,0x07,0x3b,0x7d,0x66,0xc0,0x3b,
0xa9,0x57,0x1c,0x3b,0xbc,0x8a,0x53,0x3b,0x7d,0x0b,0x88,0x3b,
0x4e,0x8a,0x48,0x3b,0x30,0x93,0xe0,0x3a,0xdb,0xb5,0x80,0x3b,
0x28,0xe1,0x87,0x3b,0xb3,0xcd,0x9b,0x3a,0xc2,0xf0,0x5f,0x3b,
0x3f,0x81,0xd8,0x3b,0xa8,0x73,0x2a,0x3b,0x52,0xad,0x92,0x3b,
0x81,0xa8,0x61,0x3b,0xcc,0x1a,0x3e,0x3b,0xb0,0xc8,0x53,0x3b,
0x02,0x7b,0x31,0x3b,0x6a,0xb4,0x85,0x3b,0xf6,0x0a,0x31,0x3b,
0x6d,0x43,0xf1,0x3a,0x6e,0xb6,0x27,0x3b,0x00,0x6d,0x5b,0x3b,
0xf0,0x56,0x75,0x3b,0xbd,0x33,0x6c,0x3b,0x94,0xb1,0x44,0x3b,
0xcd,0xf4,0xa9,0x3b,0x16,0x07,0x77,0x3b,0xc7,0x8c,0x15,0x3b,
0xb4,0xca,0x57,0x3b,0x68,0x82,0x44,0x3b,0xd2,0x94,0x29,0x3b,
0x0d,0xc6,0x3c,0x3b,0x55,0xe0,0x5b,0x3b,0x1b,0xa9,0x75,0x3b,
0xc6,0x6f,0x33,0x3b,0x32,0xc5,0x3e,0x3b,0xf5,0x75,0xa5,0x3b,
0x16,0x7e,0x96,0x3b,0x3c,0x26,0x69,0x3b,0x48,0x3e,0x3f,0x3b,
0xfb,0x79,0x52,0x3b,0x7c,0x18,0x78,0x3b,0x4b,0x7b,0xab,0x3b,
0x68,0x05,0x83,0x3b,0x82,0x4d,0x5f,0x3b,0x46,0x2f,0x54,0x3b,
0x1d,0xf1,0xcb,0x3b,0x12,0x00,0x00,0x00,0x74,0x66,0x6c,0x2e,
0x70,0x73,0x65,0x75,0x64,0x6f,0x5f,0x71,0x63,0x6f,0x6e,0x73,
0x74,0x35,0x00,0x00,0x02,0x00,0x00,0x00,0x40,0x00,0x00,0x00,
0x05,0x00,0x00,0x00,0xa2,0xf8,0xff,0xff,0x00,0x00,0x00,0x01,
0x14,0x00,0x00,0x00,0x24,0x03,0x00,0x00,0x06,0x00,0x00,0x00,
0x00,0x00,0x00,0x02,0x30,0x03,0x00,0x00,0x8c,0xf8,0xff,0xff,
0x08,0x00,0x00,0x00,0x08,0x02,0x00,0x00,0x40,0x00,0x00,0x00,
0x00,0x00,0x00,0x00,0x00,0x00,0x00,0x00,0x00,0x00,0x00,0x00,
0x00,0x00,0x00,0x00,0x00,0x00,0x00,0x00,0x00,0x00,0x00,0x00,
0x00,0x00,0x00,0x00,0x00,0x00,0x00,0x00,0x00,0x00,0x00,0x00,
0x00,0x00,0x00,0x00,0x00,0x00,0x00,0x00,0x00,0x00,0x00,0x00,
0x00,0x00,0x00,0x00,0x00,0x00,0x00,0x00,0x00,0x00,0x00,0x00,
0x00,0x00,0x00,0x00,0x00,0x00,0x00,0x00,0x00,0x00,0x00,0x00,
0x00,0x00,0x00,0x00,0x00,0x00,0x00,0x00,0x00,0x00,0x00,0x00,
0x00,0x00,0x00,0x00,0x00,0x00,0x00,0x00,0x00,0x00,0x00,0x00,
0x00,0x00,0x00,0x00,0x00,0x00,0x00,0x00,0x00,0x00,0x00,0x00,
0x00,0x00,0x00,0x00,0x00,0x00,0x00,0x00,0x00,0x00,0x00,0x00,
0x00,0x00,0x00,0x00,0x00,0x00,0x00,0x00,0x00,0x00,0x00,0x00,
0x00,0x00,0x00,0x00,0x00,0x00,0x00,0x00,0x00,0x00,0x00,0x00,
0x00,0x00,0x00,0x00,0x00,0x00,0x00,0x00,0x00,0x00,0x00,0x00,
0x00,0x00,0x00,0x00,0x00,0x00,0x00,0x00,0x00,0x00,0x00,0x00,
0x00,0x00,0x00,0x00,0x00,0x00,0x00,0x00,0x00,0x00,0x00,0x00,
0x00,0x00,0x00,0x00,0x00,0x00,0x00,0x00,0x00,0x00,0x00,0x00,
0x00,0x00,0x00,0x00,0x00,0x00,0x00,0x00,0x00,0x00,0x00,0x00,
0x00,0x00,0x00,0x00,0x00,0x00,0x00,0x00,0x00,0x00,0x00,0x00,
0x00,0x00,0x00,0x00,0x00,0x00,0x00,0x00,0x00,0x00,0x00,0x00,
0x00,0x00,0x00,0x00,0x00,0x00,0x00,0x00,0x00,0x00,0x00,0x00,
0x00,0x00,0x00,0x00,0x00,0x00,0x00,0x00,0x00,0x00,0x00,0x00,
0x00,0x00,0x00,0x00,0x00,0x00,0x00,0x00,0x00,0x00,0x00,0x00,
0x00,0x00,0x00,0x00,0x00,0x00,0x00,0x00,0x00,0x00,0x00,0x00,
0x00,0x00,0x00,0x00,0x00,0x00,0x00,0x00,0x00,0x00,0x00,0x00,
0x00,0x00,0x00,0x00,0x00,0x00,0x00,0x00,0x00,0x00,0x00,0x00,
0x00,0x00,0x00,0x00,0x00,0x00,0x00,0x00,0x00,0x00,0x00,0x00,
0x00,0x00,0x00,0x00,0x00,0x00,0x00,0x00,0x00,0x00,0x00,0x00,
0x00,0x00,0x00,0x00,0x00,0x00,0x00,0x00,0x00,0x00,0x00,0x00,
0x00,0x00,0x00,0x00,0x00,0x00,0x00,0x00,0x00,0x00,0x00,0x00,
0x00,0x00,0x00,0x00,0x00,0x00,0x00,0x00,0x00,0x00,0x00,0x00,
0x00,0x00,0x00,0x00,0x00,0x00,0x00,0x00,0x00,0x00,0x00,0x00,
0x00,0x00,0x00,0x00,0x00,0x00,0x00,0x00,0x00,0x00,0x00,0x00,
0x00,0x00,0x00,0x00,0x00,0x00,0x00,0x00,0x00,0x00,0x00,0x00,
0x00,0x00,0x00,0x00,0x00,0x00,0x00,0x00,0x00,0x00,0x00,0x00,
0x00,0x00,0x00,0x00,0x00,0x00,0x00,0x00,0x00,0x00,0x00,0x00,
0x00,0x00,0x00,0x00,0x00,0x00,0x00,0x00,0x00,0x00,0x00,0x00,
0x00,0x00,0x00,0x00,0x00,0x00,0x00,0x00,0x00,0x00,0x00,0x00,
0x00,0x00,0x00,0x00,0x00,0x00,0x00,0x00,0x00,0x00,0x00,0x00,
0x00,0x00,0x00,0x00,0x00,0x00,0x00,0x00,0x00,0x00,0x00,0x00,
0x00,0x00,0x00,0x00,0x00,0x00,0x00,0x00,0x00,0x00,0x00,0x00,
0x00,0x00,0x00,0x00,0x00,0x00,0x00,0x00,0x00,0x00,0x00,0x00,
0x00,0x00,0x00,0x00,0x00,0x00,0x00,0x00,0x00,0x00,0x00,0x00,
0x00,0x00,0x00,0x00,0x00,0x00,0x00,0x00,0x40,0x00,0x00,0x00,
0xca,0xa6,0x6d,0x38,0x9b,0xa2,0x97,0x38,0x95,0x7a,0x5a,0x38,
0x2f,0x75,0xb6,0x38,0x61,0xcf,0x6f,0x38,0xff,0x83,0xb7,0x38,
0xfc,0x23,0x6b,0x38,0x1f,0x11,0x67,0x38,0xce,0xab,0xbb,0x38,
0xdd,0x02,0x51,0x38,0xc2,0x70,0xab,0x38,0xdf,0x7b,0xb1,0x38,
0x25,0xb1,0x8d,0x38,0x82,0x8b,0x99,0x38,0x0d,0x42,0x34,0x38,
0xec,0x99,0x45,0x38,0xc6,0xd8,0x3c,0x38,0x84,0x60,0x06,0x39,
0xf8,0x62,0x5a,0x38,0xf7,0xbe,0x93,0x38,0xb5,0x08,0xbe,0x38,
0xe7,0x0f,0x8c,0x38,0x39,0xd9,0x1c,0x38,0xf0,0xc9,0xb3,0x38,
0x93,0xcd,0xbd,0x38,0x42,0xa2,0xd9,0x37,0xc7,0x67,0x9c,0x38,
0x52,0x36,0x17,0x39,0x61,0x18,0x6e,0x38,0xb1,0xe2,0xcc,0x38,
0xe9,0x9a,0x9d,0x38,0x0f,0xc6,0x84,0x38,0x3c,0xea,0x93,0x38,
0xcc,0xe9,0x77,0x38,0xe4,0xc3,0xba,0x38,0x49,0x4d,0x77,0x38,
0x0f,0x81,0x28,0x38,0xdf,0x44,0x6a,0x38,0x92,0x40,0x99,0x38,
0xdf,0x59,0xab,0x38,0x1e,0xf8,0xa4,0x38,0x26,0x60,0x89,0x38,
0x2e,0x67,0xed,0x38,0xb2,0x87,0xac,0x38,0x03,0xe6,0x50,0x38,
0xd4,0xb6,0x96,0x38,0x33,0x3f,0x89,0x38,0x1c,0xe1,0x6c,0x38,
0x13,0xd8,0x83,0x38,0x1f,0x91,0x99,0x38,0x42,0x93,0xab,0x38,
0x4b,0xa5,0x7a,0x38,0x12,0x3d,0x85,0x38,0xa0,0x1f,0xe7,0x38,
0x16,0x37,0xd2,0x38,0x4c,0xd6,0xa2,0x38,0xa3,0x91,0x85,0x38,
0x78,0x00,0x93,0x38,0xa4,0x46,0xad,0x38,0xa3,0x88,0xef,0x38,
0x3f,0x04,0xb7,0x38,0xc3,0xf5,0x9b,0x38,0xe2,0x31,0x94,0x38,
0x19,0x70,0x0e,0x39,0x12,0x00,0x00,0x00,0x74,0x66,0x6c,0x2e,
0x70,0x73,0x65,0x75,0x64,0x6f,0x5f,0x71,0x63,0x6f,0x6e,0x73,
0x74,0x34,0x00,0x00,0x01,0x00,0x00,0x00,0x40,0x00,0x00,0x00,
0xf2,0xfb,0xff,0xff,0x00,0x00,0x00,0x01,0x14,0x00,0x00,0x00,
0xa8,0x01,0x00,0x00,0x05,0x00,0x00,0x00,0x00,0x00,0x00,0x09,
0xb4,0x01,0x00,0x00,0xdc,0xfb,0xff,0xff,0x08,0x00,0x00,0x00,
0x0c,0x01,0x00,0x00,0x20,0x00,0x00,0x00,0x00,0x00,0x00,0x00,
0x00,0x00,0x00,0x00,0x00,0x00,0x00,0x00,0x00,0x00,0x00,0x00,
0x00,0x00,0x00,0x00,0x00,0x00,0x00,0x00,0x00,0x00,0x00,0x00,
0x00,0x00,0x00,0x00,0x00,0x00,0x00,0x00,0x00,0x00,0x00,0x00,
0x00,0x00,0x00,0x00,0x00,0x00,0x00,0x00,0x00,0x00,0x00,0x00,
0x00,0x00,0x00,0x00,0x00,0x00,0x00,0x00,0x00,0x00,0x00,0x00,
0x00,0x00,0x00,0x00,0x00,0x00,0x00,0x00,0x00,0x00,0x00,0x00,
0x00,0x00,0x00,0x00,0x00,0x00,0x00,0x00,0x00,0x00,0x00,0x00,
0x00,0x00,0x00,0x00,0x00,0x00,0x00,0x00,0x00,0x00,0x00,0x00,
0x00,0x00,0x00,0x00,0x00,0x00,0x00,0x00,0x00,0x00,0x00,0x00,
0x00,0x00,0x00,0x00,0x00,0x00,0x00,0x00,0x00,0x00,0x00,0x00,
0x00,0x00,0x00,0x00,0x00,0x00,0x00,0x00,0x00,0x00,0x00,0x00,
0x00,0x00,0x00,0x00,0x00,0x00,0x00,0x00,0x00,0x00,0x00,0x00,
0x00,0x00,0x00,0x00,0x00,0x00,0x00,0x00,0x00,0x00,0x00,0x00,
0x00,0x00,0x00,0x00,0x00,0x00,0x00,0x00,0x00,0x00,0x00,0x00,
0x00,0x00,0x00,0x00,0x00,0x00,0x00,0x00,0x00,0x00,0x00,0x00,
0x00,0x00,0x00,0x00,0x00,0x00,0x00,0x00,0x00,0x00,0x00,0x00,
0x00,0x00,0x00,0x00,0x00,0x00,0x00,0x00,0x00,0x00,0x00,0x00,
0x00,0x00,0x00,0x00,0x00,0x00,0x00,0x00,0x00,0x00,0x00,0x00,
0x00,0x00,0x00,0x00,0x00,0x00,0x00,0x00,0x00,0x00,0x00,0x00,
0x00,0x00,0x00,0x00,0x00,0x00,0x00,0x00,0x00,0x00,0x00,0x00,
0x00,0x00,0x00,0x00,0x00,0x00,0x00,0x00,0x00,0x00,0x00,0x00,
0x00,0x00,0x00,0x00,0x20,0x00,0x00,0x00,0x51,0x7b,0x84,0x3b,
0x74,0xf6,0x59,0x3b,0x2c,0x70,0xc9,0x3b,0x60,0x73,0xa9,0x3b,
0xf0,0xfa,0x9f,0x3b,0x7d,0x69,0x90,0x3b,0x71,0x11,0x00,0x3b,
0xb9,0x5c,0xdd,0x3b,0xd6,0x34,0xe0,0x3b,0x3c,0xdf,0x02,0x3c,
0x38,0x1f,0xac,0x3b,0x09,0x60,0xaf,0x3b,0x97,0x49,0xea,0x3b,
0x7d,0xe3,0x8e,0x3b,0x98,0x75,0x0a,0x3c,0xda,0x46,0x06,0x3c,
0xf9,0x4e,0xec,0x3b,0x79,0x58,0x08,0x3c,0xb2,0xfb,0xbc,0x3b,
0xea,0x06,0x72,0x3b,0xe6,0xfa,0xea,0x3b,0xed,0x69,0x3c,0x3b,
0x75,0xcc,0x91,0x3b,0x42,0x5c,0x0a,0x3c,0x6d,0xba,0xbe,0x3b,
0xbf,0x39,0x2f,0x3c,0x93,0x5a,0x6b,0x3b,0x57,0x25,0x8d,0x3b,
0x37,0x75,0x95,0x3b,0xe7,0x09,0xe7,0x3b,0xfc,0xd2,0x81,0x3b,
0xd7,0x6c,0x07,0x3c,0x12,0x00,0x00,0x00,0x74,0x66,0x6c,0x2e,
0x70,0x73,0x65,0x75,0x64,0x6f,0x5f,0x71,0x63,0x6f,0x6e,0x73,
0x74,0x33,0x00,0x00,0x02,0x00,0x00,0x00,0x20,0x00,0x00,0x00,
0x40,0x00,0x00,0x00,0xca,0xfd,0xff,0xff,0x00,0x00,0x00,0x01,
0x14,0x00,0x00,0x00,0xa4,0x01,0x00,0x00,0x04,0x00,0x00,0x00,
0x00,0x00,0x00,0x02,0xb0,0x01,0x00,0x00,0xb4,0xfd,0xff,0xff,
0x08,0x00,0x00,0x00,0x08,0x01,0x00,0x00,0x20,0x00,0x00,0x00,
0x00,0x00,0x00,0x00,0x00,0x00,0x00,0x00,0x00,0x00,0x00,0x00,
0x00,0x00,0x00,0x00,0x00,0x00,0x00,0x00,0x00,0x00,0x00,0x00,
0x00,0x00,0x00,0x00,0x00,0x00,0x00,0x00,0x00,0x00,0x00,0x00,
0x00,0x00,0x00,0x00,0x00,0x00,0x00,0x00,0x00,0x00,0x00,0x00,
0x00,0x00,0x00,0x00,0x00,0x00,0x00,0x00,0x00,0x00,0x00,0x00,
0x00,0x00,0x00,0x00,0x00,0x00,0x00,0x00,0x00,0x00,0x00,0x00,
0x00,0x00,0x00,0x00,0x00,0x00,0x00,0x00,0x00,0x00,0x00,0x00,
0x00,0x00,0x00,0x00,0x00,0x00,0x00,0x00,0x00,0x00,0x00,0x00,
0x00,0x00,0x00,0x00,0x00,0x00,0x00,0x00,0x00,0x00,0x00,0x00,
0x00,0x00,0x00,0x00,0x00,0x00,0x00,0x00,0x00,0x00,0x00,0x00,
0x00,0x00,0x00,0x00,0x00,0x00,0x00,0x00,0x00,0x00,0x00,0x00,
0x00,0x00,0x00,0x00,0x00,0x00,0x00,0x00,0x00,0x00,0x00,0x00,
0x00,0x00,0x00,0x00,0x00,0x00,0x00,0x00,0x00,0x00,0x00,0x00,
0x00,0x00,0x00,0x00,0x00,0x00,0x00,0x00,0x00,0x00,0x00,0x00,
0x00,0x00,0x00,0x00,0x00,0x00,0x00,0x00,0x00,0x00,0x00,0x00,
0x00,0x00,0x00,0x00,0x00,0x00,0x00,0x00,0x00,0x00,0x00,0x00,
0x00,0x00,0x00,0x00,0x00,0x00,0x00,0x00,0x00,0x00,0x00,0x00,
0x00,0x00,0x00,0x00,0x00,0x00,0x00,0x00,0x00,0x00,0x00,0x00,
0x00,0x00,0x00,0x00,0x00,0x00,0x00,0x00,0x00,0x00,0x00,0x00,
0x00,0x00,0x00,0x00,0x00,0x00,0x00,0x00,0x00,0x00,0x00,0x00,
0x00,0x00,0x00,0x00,0x00,0x00,0x00,0x00,0x00,0x00,0x00,0x00,
0x00,0x00,0x00,0x00,0x20,0x00,0x00,0x00,0x54,0x77,0x8d,0x38,
0x7f,0xbe,0x68,0x38,0x55,0x19,0xd7,0x38,0x34,0xf1,0xb4,0x38,
0x59,0xd4,0xaa,0x38,0x9f,0x34,0x9a,0x38,0xd4,0xc0,0x08,0x38,
0xc9,0x5f,0xec,0x38,0x46,0x69,0xef,0x38,0x4c,0xbf,0x0b,0x39,
0x6c,0xcb,0xb7,0x38,0xb7,0x44,0xbb,0x38,0x0c,0x2d,0xfa,0x38,
0x2c,0x94,0x98,0x38,0x62,0xd9,0x13,0x39,0x06,0x62,0x0f,0x39,
0x84,0x55,0xfc,0x38,0x90,0x97,0x11,0x39,0xa0,0xcc,0xc9,0x38,
0x5e,0x38,0x81,0x38,0x61,0xea,0xfa,0x38,0xf8,0x30,0x49,0x38,
0xa9,0xaf,0x9b,0x38,0x54,0xbe,0x13,0x39,0xa7,0xa9,0xcb,0x38,
0xd5,0x1b,0x3b,0x39,0x8b,0x50,0x7b,0x38,0xc5,0xb7,0x96,0x38,
0xf2,0x97,0x9f,0x38,0xf5,0xb4,0xf6,0x38,0xdb,0xa0,0x8a,0x38,
0xf3,0x9b,0x10,0x39,0x12,0x00,0x00,0x00,0x74,0x66,0x6c,0x2e,
0x70,0x73,0x65,0x75,0x64,0x6f,0x5f,0x71,0x63,0x6f,0x6e,0x73,
0x74,0x32,0x00,0x00,0x01,0x00,0x00,0x00,0x20,0x00,0x00,0x00,
0x9a,0xff,0xff,0xff,0x00,0x00,0x00,0x01,0x14,0x00,0x00,0x00,
0x34,0x00,0x00,0x00,0x03,0x00,0x00,0x00,0x00,0x00,0x00,0x09,
0x40,0x00,0x00,0x00,0x84,0xff,0xff,0xff,0x08,0x00,0x00,0x00,
0x14,0x00,0x00,0x00,0x01,0x00,0x00,0x00,0x00,0x00,0x00,0x00,
0x00,0x00,0x00,0x00,0x00,0x00,0x00,0x00,0x01,0x00,0x00,0x00,
0xb5,0x4c,0x15,0x3c,0x12,0x00,0x00,0x00,0x74,0x66,0x6c,0x2e,
0x70,0x73,0x65,0x75,0x64,0x6f,0x5f,0x71,0x63,0x6f,0x6e,0x73,
0x74,0x31,0x00,0x00,0x02,0x00,0x00,0x00,0x01,0x00,0x00,0x00,
0x20,0x00,0x00,0x00,0x00,0x00,0x16,0x00,0x1c,0x00,0x18,0x00,
0x17,0x00,0x10,0x00,0x0c,0x00,0x08,0x00,0x00,0x00,0x00,0x00,
0x00,0x00,0x07,0x00,0x16,0x00,0x00,0x00,0x00,0x00,0x00,0x01,
0x20,0x00,0x00,0x00,0x3c,0x00,0x00,0x00,0x02,0x00,0x00,0x00,
0x00,0x00,0x00,0x02,0x48,0x00,0x00,0x00,0x0c,0x00,0x0c,0x00,
0x00,0x00,0x00,0x00,0x08,0x00,0x04,0x00,0x0c,0x00,0x00,0x00,
0x08,0x00,0x00,0x00,0x10,0x00,0x00,0x00,0x01,0x00,0x00,0x00,
0x00,0x00,0x00,0x00,0x00,0x00,0x00,0x00,0x01,0x00,0x00,0x00,
0x95,0x63,0xc5,0x39,0x11,0x00,0x00,0x00,0x74,0x66,0x6c,0x2e,
0x70,0x73,0x65,0x75,0x64,0x6f,0x5f,0x71,0x63,0x6f,0x6e,0x73,
0x74,0x00,0x00,0x00,0x01,0x00,0x00,0x00,0x01,0x00,0x00,0x00,
0x00,0x00,0x16,0x00,0x1c,0x00,0x18,0x00,0x00,0x00,0x14,0x00,
0x10,0x00,0x0c,0x00,0x00,0x00,0x00,0x00,0x08,0x00,0x07,0x00,
0x16,0x00,0x00,0x00,0x00,0x00,0x00,0x01,0x14,0x00,0x00,0x00,
0x20,0x00,0x00,0x00,0x20,0x00,0x00,0x00,0x01,0x00,0x00,0x00,
0x3c,0x00,0x00,0x00,0x02,0x00,0x00,0x00,0xff,0xff,0xff,0xff,
0x05,0x00,0x00,0x00,0x04,0x00,0x04,0x00,0x04,0x00,0x00,0x00,
0x1d,0x00,0x00,0x00,0x73,0x65,0x72,0x76,0x69,0x6e,0x67,0x5f,
0x64,0x65,0x66,0x61,0x75,0x6c,0x74,0x5f,0x69,0x6e,0x70,0x75,
0x74,0x5f,0x6c,0x61,0x79,0x65,0x72,0x3a,0x30,0x00,0x00,0x00,
0x02,0x00,0x00,0x00,0x01,0x00,0x00,0x00,0x05,0x00,0x00,0x00,
0x04,0x00,0x00,0x00,0x58,0x00,0x00,0x00,0x38,0x00,0x00,0x00,
0x18,0x00,0x00,0x00,0x04,0x00,0x00,0x00,0xe0,0xff,0xff,0xff,
0x06,0x00,0x00,0x00,0x02,0x00,0x00,0x00,0x00,0x00,0x00,0x06,
0xf0,0xff,0xff,0xff,0x0e,0x00,0x00,0x00,0x02,0x00,0x00,0x00,
0x00,0x00,0x00,0x0e,0x0c,0x00,0x10,0x00,0x0f,0x00,0x00,0x00,
0x08,0x00,0x04,0x00,0x0c,0x00,0x00,0x00,0x09,0x00,0x00,0x00,
0x04,0x00,0x00,0x00,0x00,0x00,0x00,0x09,0x0c,0x00,0x0c,0x00,
0x0b,0x00,0x00,0x00,0x00,0x00,0x04,0x00,0x0c,0x00,0x00,0x00,
0x72,0x00,0x00,0x00,0x00,0x00,0x00,0x72
};

#endif // IPO_H
